ec
be
3c
70
c9
be
eb
7f
af
8e
eb
f2
67
0c
22
20
dc
a6
1b
8d
d7
35
63
49
0b
89
67
07
9f
61
08
ec
be
ee
d2
ad
de
d7
17
93
7a
8f
52
2f
c8
13
61
d7
34
fe
f8
e6
31
bb
35
7f
28
75
b8
16
04
ff
16
f6
36
b4
46
01
10
f6
d1
d1
b2
18
1e
4d
0c
f6
ef
9a
e4
c9
92
f0
5b
3c
e7
ce
7f
d0
5d
e7
3e
fc
9d
1d
5c
61
c9
56
52
73
2e
8d
c7
e0
9f
04
68
8a
05
64
47
5b
45
88
3c
25
6c
c9
1f
20
eb
4a
d6
24
de
6d
64
f0
d6
4f
e2
03
99
3c
dc
51
76
eb
b5
98
2d
9c
3f
05
52
1a
e1
0e
9b
dc
6d
6e
95
3c
a9
f7
df
ce
97
25
48
3b
13
69
fa
14
0f
5e
ba
0a
5e
54
9a
44
c5
eb
59
c0
3b
58
10
6b
d0
d8
94
cc
55
8e
04
8e
57
e3
39
3e
70
d5
f9
5c
61
c0
ca
96
0b
8e
da
af
07
dc
8a
7c
ad
35
c9
45