fe
ff
ff
ff
ff
ff
ff
ff
ff
00
ff
00
ff
00
00
00
00
00
01
ff
ff
ff
00
01
00
00
00
00
00
00
00
00
00
fe
ff
ff
ff
ff
ff
00
ff
ff
00
01
00
00
ff
00
ff
fe
fe
00
00
ff
ff
ff
ff
00
ff
00
ff
00
ff
00
00
00
ff
01
ff
fe
ff
00
ff
01
00
ff
ff
ff
fe
ff
00
00
ff
ff
ff
00
fe
ff
00
00
00
fe
00
fe
00
00
00
00
fe
ff
00
00
ff
00
ff
ff
00
01
ff
00
ff
ff
01
00
00
00
ff
00
00
00
00
00
ff
00
00
01
ff
00
ff
fe
ff
00
fe
01
ff
ff
00
00
ff
00
ff
00
ff
ff
ff
00
00
ff
00
ff
00
fe
00
00
ff
ff
00
ff
ff
ff
00
01
00
ff
01
ff
fe
ff
00
00
ff
01
ff
ff
ff
00
ff
fe
00
ff
00
00
00
ff
ff
ff
00
ff
ff
00
00
ff
ff
fe
00
01
00
ff
fe
ff
00
fe
00
00
01
00
00
ff
00
ff
00
ff
00
ff
00
ff