E3
B8
96
58
93
33
29
FA
80
42
53
1E
31
96
38
82
A2
28
F3
E1
6C
13
18
6E
13
1A
3A
06
B9
72
B4
C8
77
41
D6
40
DB
DC
9F
7B
AC
9A
8A
80
45
CF
01
D6
A0
41
AE
23
91
47
F8
4D
9D
55
7D
27
8F
A0
DC
66
CD
6A
CC
25
4B
0D
B0
7B
E2
9B
2A
57
F4
FC
5E
92
66
29
2F
80
D4
58
D1
05
DF
04
3C
70
C8
EA
2F
F6
FD
60
92
B3
5E
8A
15
1C
E3
4A
75
0E
C3
EB
0E
0E
76
71
88
AB
6B
01
E1
AB
54
9B
E9
8F
5D
2A
82
51
22
51
B1
40
89
9D
01
32
0F
B8
60
67
E9
3A
72
A5
F7
D7
3D
68
44
62
D8
8E
DA
81
00
AD
9F
D1
81
7D
71
7F
13
05
EC
CD
FB
EB
72
B9
2B
C8
88
58
32
86
AA
4B
23
AC
1D
FF
F2
26
C6
BE
B6
52
00
31
FE
B6
77
5C
CE
80
6C
2D
1A
8B
76
55
AA
E2
A4
71
14
FB
3F
4F
0C
78
01
9E
12
2E
B8
FB
0F
B1
53
62
BE
EC
66
B9
3F
B1
CA
EE
98
FF
37
8B
95
25
A8
17
55
F8
49
76
A0
99
9F
3D
EC
83
06
BA
60
97
32
61
1C
55
A9
8B
50
8E
4D
46
51
84
C9
73
BF
64
5E
CF
21
44
EE
2D
BF
2D
1E
2E
80
D6
FE
70
19
5D
D3
62
B6
88
FA
22
DA
9B
C5
82
6A
A3
A0
57
94
3B
CF
14
68
08
26
F0
6E
8F
51
D0
77
D3
55
FC
25
57
58
68
5A
C1
A8
73
EB
51
A9
96
7E
D4
98
66
99
40
D4
9A
70
77
DE
1F
85
8F
D6
A0
47
F9
3E
E8
37
48
0D
DA
C5
7C
F6
73
95
13
B8
35
30
A2
F7
F0
F4
9F
B4
32
81
A9
CA
8C
29
99
74
D8
CB
EA
EE
4D
BC
99
66
B4
26
CA
D1
C5
CA
FE
6E
26
40
9E
63
49
2C
B9
B2
27
97
B2
82
29
EC
3D
4A
A7
5A
F3
52
2F
16
69
61
0C
FD
A0
EF
FA
AE
2D
A7
64
C3
80
0C
49
4E
C7
6E
D4
CC
FD
F6
DF
A8
30
41
75
2C
DE
92
75
F6
FF
EE
4B
F7
A5
B2
2B
85
8E
93
C3
83
73
9B
84
D1
F4
23
B9
2B
82
8E
D5
B0
D4
61
73
C6
D5
CC
D7
E6
DA
B6
81
C6
F1
D6
F5
B7
1D
06
EA
79
18
47
A0
64
2C
CA
28
5D
80
A5
E2
74
02
5D
83
ED
AB
9C
AA
5C
99
38
87
AB
95
89
47
58
03
68
1D
B1
23
64
97
CC
62
5D
46
56
3E
12
6F
CC
93
9F
9C
16
65
3D
F9
B0
1B
42
7A
39
47
70
C4
3F
46
08
6C
2D
88
E6
48
1B
A1
59
5F
86
85
71
3A
41
9C
AE
66
72
A9
3C
C0
2E
53
D0
36
42
F1
67
F3
4B
83
E7
B5
C8
BA
BE
34
22
4D
D1
53
55
E7
31
54
0E
BA
52
57
EC
CF
54
40
61
FF
45
93
3D
12
85
9E
FD
47
92
2B
9A
D9
A9
CA
5E
30
BE
64
F3
ED
5F
49
F3
40
5D
53
FE
F4
10
3B
B9
77
25
53
08
D8
58
28
35
C0
A0
FB
60
8F
37
D8
EB
39
20
CA
CB
E4
4B
E6
CB
5D
49
BF
0B
F0
27
63
C2
CB
76
B3
E9
7A
76
11
A8
64
5A
64
34
6A
C1
A3
25
89
CC
4F
36
0D
12
DC
60
7B
A7
54
82
D4
05
20
04
3B
46
8A
81
1B
23
C9
6D
6B
88
B0
A6
DE
47
E0
FB
F8
B9
C6
AB
25
E8
93
AB
07
0D
E2
B4
5D
97
81
07
6A
28
5E
CB
E4
D6
49
0D
08
C8
EC
61
DB
15
20
E8
5B
6E
1D
BA
0B
12
BF
6F
0C
F9
4D
B9
CC
3A
44
78
E0
B2
E8
C7
96
2D
A2
7C
1F
AD
69
7D
18
ED
60
3C
76
AA
06
87
70
22
20
0E
D6
F7
3F
8B
12
5B
3C
08
A6
7C
40
48
F1
5D
2A
03
58
53
6C
01
3C
FC
14
19
D3
1C
3A
BD
8C
98
48
69
70
30
10
BB
39
68
BB
B4
53
D9
AF
29
A7
CF
F8
91
83
D3
18
5E
71
04
4E
99
18
5B
C2
B1
EE
58
47
66
95
60
EB
1E
D5
23
97
57
DD
95
F3
21
2C
F7
60
A3
AE
3D
C2
D0
F5
AC
3C
12
57
A9
B7
FA
10
E1
14
E2
CC
82
CE
B0
69
4D
EE
C9
52
5D
63
DC
F3
CD
B5
D2
0B
CF
FF
4B
7B
7C
43
7B
18
58
DB
86
C1
DC
BF
45
3B
61
BC
D8
7D
97
41
A6
AA
9C
30
4D
68
6A
F5
16
56
B2
ED
BB
ED
3E
C3
42
6B
CA
3D
8B
76
6F
79
7B
DB
EB
95
DE
6E
93
C1
35
19
0A
11
D2
43
0E
D0
6E
1C
5D
87
37
D8
F2
D2
F7
73
DE
05
89
E0
9A
69
AD
F1
74
64
19
82
F0
81
4B
CC
34
6E
3E
30
B4
E7
4A
7E
2D
A2
3A
76
AA
B7
8D
E6
36
DC
78
6B
D8
A4
27
11
B7
DF
31
F1
FE
09
97
E5
89
91
8E
AC
6B
27
D2
34
BB
10
CA
BB
71
BF
5B
AE
92
26
A6
FA
65
DE
87
18
29
01
DA
94
78
87
79
0E
53
5D
B8
77
CE
37
F6
63
2C
45
7B
A8
2C
35
AD
68
32
56
75
B6
06
EB
8E
83
7F
1E
E6
10
6A
53
00
78
11
E1
EF
58
FE
52
1F
91
91
DD
6F
9C
87
EF
82
80
99
1F
58
9D
31
7C
95
4C
54
6C
80
72
C3
52
30
3F
9F
39
57
76
AB
17
35
A6
A7
26
2E
99
39
AB
BD
33
C9
5C
34
3B
E9
3D
4F
31
77
A1
E0
00
76
4E
3F
7C
2B
A4
DC
32
84
F6
C6
F6
1B
85
B9
0C
E7
FD
06
C8
CA
BD
B1
97
81
28
95
AE
76
23
BA
50
D1
FE
FF
49
FB
F6
BF
44
07
BB
8D
D9
73
94
F7
F1
63
CE
2A
A0
5D
ED
4B
01
33
12
DD
C8
F5
FA
B9
24
28
DC
DE
F1
E8
FF
84
4B
61
C6
E8
60
81
1B
8E
74
EA
B3
0A
58
4C
75
AE
1B
1B
7D
6C
DF
18
DA
74
01
38
FF
C1
BE
60
DE
BB
5A
49
1C
F6
F7
3F
6A
4C
15
99
74
3F
CA
84
CF
83
24
1A
B9
27
FC
FE
2F
8C
E5
32
65
D1
54
E3
5F
6D
A6
D7
9A
6F
23
FA
9E
60
01
00
85
F2
38
6E
41
52
B0
14
2F
6C
0E
4D
0E
DE
B8
AF
52
63
E4
DC
EA
69
A7
85
B7
5C
67
7E
BB
63
AA
41
1B
0F
C3
2E
95
B3
63
5A
14
A6
46
99
4F
3D
7D
35
97
91
91
EF
A9
9A
84
26
92
D1
78
0D
00
17
F5
F9
9A
8D
2E
D6
D3
1B
3D
14
1C
05
D3
C6
5C
48
D3
0F
39
84
54
07
71
F2
F4
26
17
0B
07
85
2F
B3
49
B3
3A
4A
C7
25
19
CC
A1
F2
67
B2
FE
09
4F
05
C9
16
8F
DF
9A
87
35
81
CA
ED
1E
56
91
5F
CC
7F
3A
F0
51
3E
3F
73
98
D8
48
B4
76
E5
01
D0
E8
3C
EF
40
94
B3
33
8A
B6
04
C4
72
E4
A1
ED
31
37
EE
C9
6A
D5
E2
5D
F3
D0
7F
B8
E7
B0
52
2B
2B
6D
3B
E5
2C
E5
D6
E3
AA
20
C0
5A
F5
D1
B3
C2
FC
6B
A8
8C
55
7C
4C
85
E0
A9
65
FD
60
E1
89
55
32
A2
CF
17
CD
F0
D7
D2
4D
8F
9A
6B
A8
72
44
67
59
82
BA
4B
50
19
7B
46
A3
B2
E5
5F
51
F6
AC
71
26
1C
35
BC
DC
21
79
6F
FD
7A
2A
84
05
A1
CF
66
03
1E
4A
3A
EE
C3
5E
6F
B1
A7
C1
C8
DB
9A
E1
52
88
26
E2
E1
06
14
6A
67
29
51
24
94
CC
7E
D7
7D
25
37
E9
0C
CB
AD
2A
7D
68
E6
26
26
CD
76
AE
09
99
3B
94
DD
EA
4C
B5
4E
2F
B4
0A
FC
7E
05
D4
D8
A8
4F
31
C5
D4
7F
4C
99
5A
72
62
BB
DE
A3
37
44
8F
AA
3B
46
D6
0D
C3
09
13
3D
9A
EB
03
17
3B
B1
D2
C4
C9
1A
94
21
33
4D
D7
1D
A8
5B
E7
9F
36
9D
7F
E7
47
D4
5E
3B
3E
AE
E3
87
B1
6F
BE
01
AA
71
72
9A
C1
36
D4
7C
AE
64
1D
A8
39
3C
F3
3E
E5
7B
B4
7B
15
0D
FC
1D
C7
AE
C0
65
B1
CC
09
28
EF
11
61
19
94
48
B0
5E
5B
74
A1
A1
62
7E
F0
11
23
9B
3A
50
27
20
76
E6
E3
14
89
73
C6
7E
C5
70
FD
13
32
20
88
C9
69
BD
FC
3E
DD
62
B0
B2
21
F3
7B
CA
06
6A
F1
EC
9D
9C
B9
7F
05
03
64
AC
0F
2D
44
AC
AD
20
80
56
6E
D6
8A
B1
C1
DD
0C
22
4A
11
0F
94
FE
6D
09
8A
90
3F
AD
5E
FD
12
CE
98
84
F3
DE
00
F6
75
D7
3F
99
84
AA
78
AC
6D
DE
60
5B
B9
96
EC
29
AE
FD
0B
D3
DD
A6
0B
D4
9F
D9
BB
D6
2F
BA
2B
6A
2E
9E
65
B6
3C
33
27
CE
04
57
87
7B
97
04
70
CC
14
B8
86
EE
5F
5C
CD
61
04
63
E7
7F
B9
A3
91
46
18
B6
EC
6F
B9
5D
47
AE
C3
70
8F
A8
FE
E4
86
FC
99
15
DF
75
BD
BA
90
C6
0B
BC
BC
79
0A
50
1D
6D
0E
F2
3D
A7
C3
F0
5F
E5
91
57
E2
44
82
AE
98
39
76
B0
FD
63
1F
13
2A
48
FE
F4
C2
85
A7
66
61
72
E8
F1
D0
93
4E
E0
93
25
C6
90
6B
1B
77
77
8D
A4
44
2B
DB
4B
1C
DA
0F
9D
17
8D
29
36
C7
6D
A8
0E
5A
DE
7C
2C
7F
DA
10
7D
6F
42
12
A5
7E
68
D3
77
35
70
B8
64
71
CE
FF
AF
AA
2E
5D
AF
27
8E
EC
DA
C3
B5
01
2D
44
62
D9
20
F0
E5
5F
E5
45
A4
F5
F4
92
6A
E7
01
79
98
57
00
AE
E0
B5
36
7F
CC
5F
C1
53
BC
8E
7D
8C
CC
34
41
89
5F
A1
1E
E9
E0
EC
F7
A1
FB
F9
9F
91
2C
7C
40
EE
23
1C
4F
79
41
59
CF
92
AD
14
FE
41
F8
A0
DA
E0
C8
71
48
6A
A6
D2
94
A7
81
E6
55
9B
5D
96
88
E0
44
8A
48
03
AF
6D
72
AD
48
88
32
0C
0F
5F
F3
D4
15
37
0F
F7
4E
01
5B
B8
0B
10
59
53
B8
61
E6
BB
50
1F
09
33
DC
0B
B3
33
F9
92
C4
93
05
76
42
0E
49
B7
91
D9
68
6E
6C
A2
B7
7C
6D
4C
4E
A1
E5
32
88
63
BC
41
69
33
79
81
9B
CE
0E
4F
84
D0
AC
A8
75
8A
86
F8
0B
05
44
5F
4E
D9
B2
3F
0E
03
96
BA
EA
5C
51
99
E9
5D
7B
28
93
15
31
A9
36
23
67
2F
2D
5C
18
AA
1C
B0
E3
35
8A
2E
54
91
67
27
7B
E8
73
24
AF
BC
5B
13
06
B6
37
70
40
50
66
C2
3A
A6
37
06
2B
C0
94
AD
6D
6F
95
14
4B
86
81
3A
1E
AA
CB
9F
CE
ED
6E
E1
E7
72
A0
C8
72
2F
8D
DE
DC
A8
CE
9B
4C
96
86
65
2D
27
FA
1D
8D
93
84
E1
96
5E
AE
75
59
0B
F1
CA
22
49
C9
C1
11
5F
E8
33
A0
7A
26
C9
4D
F9
23
C9
FF
76
2C
27
AD
AF
83
40
9E
37
F9
FE
F3
C3
31
54
79
E6
F3
CF
9D
83
21
27
D0
2B
FE
DF
D6
7C
AC
14
E5
55
80
61
1E
84
02
3E
5D
AD
E5
F9
D4
EA
5E
9C
01
77
D6
A5
71
9C
64
4A
34
4D
6B
79
CC
85
35
C2
E8
AF
8F
78
64
4C
A8
46
69
D2
9B
89
53
72
89
A5
19
07
2C
9B
BD
5D
63
7D
C2
5D
4A
9D
EE
11
7F
64
07
93
06
9E
C2
50
A4
84
2B
7C
A7
0D
8D
FB
DB
ED
D5
32
0F
7A
CA
C1
2A
CA
12
6D
7B
3E
B7
BB
00
CC
F4
CB
6F
61
41
3D
F8
A3
90
9A
4A
13
18
5B
99
99
A9
19
07
0D
A2
98
E9
CF
DC
CF
E4
10
AB
0C
10
7E
A6
D0
F9
C9
89
4B
47
81
44
03
AC
96
BD
54
8B
93
BC
22
17
66
47
05
BD
D7
83
B6
34
0B
84
ED
35
C2
3E
8C
3A
41
6E
69
DA
0A
CB
1F
0A
93
DB
2C
3A
5A
3F
B7
DE
6A
81
5A
A5
31
11
0D
69
42
49
41
A8
3C
18
6C
E2
CD
FC
6E
CA
D6
D5
A3
C8
7B
61
9A
8B
A9
FA
0B
85
33
5B
56
71
86
23
0B
5B
87
CB
EA
81
21
11
57
D6
37
CC
CA
47
37
AC
0D
29
54
B0
69
A1
A9
85
FA
57
1C
A5
FE
86
F6
42
C3
37
CA
A4
FB
6E
3D
ED
96
D2
1D
60
24
C2
27
D8
20
80
98
7D
3D
A5
C2
AB
21
38
D0
4E
DF
11
F4
F2
8A
11
3B
4D
D7
02
89
98
91
43
69
2B
EC
54
F0
A8
C9
73
15
06
B1
44
CF
E2
62
2B
86
8A
9B
3D
3C
7A
3C
BB
F8
2D
DB
2A
F3
3C
6D
39
DC
77
31
8E
14
1C
C4
89
93
C2
D7
99
AF
24
8E
5A
DD
EC
95
CA
5B
88
26
FC
A4
72
5C
91
1E
51
43
A8
16
B1
D1
94
7E
1B
31
76
39
1E
7E
33
8D
72
C9
4F
B9
30
2E
25
3C
DC
3F
81
AB
42
F3
2B
73
0B
C5
16
87
47
45
60
E4
32
EC
CE
5D
CD
9D
C4
8C
C9
62
98
7C
57
18
E9
D4
B0
A4
E5
EF
47
06
98
16
5F
2C
FF
09
3B
FB
03
0B
FC
E2
74
85
B6
39
B8
DB
5C
4F
06
13
98
E5
83
27
E2
62
9F
4B
C2
26
40
18
F8
A8
67
4A
C6
E7
81
3E
F9
8F
0B
88
AB
14
0D
E0
E5
56
BF
F9
99
71
67
32
72
20
A9
A2
AF
D9
74
B3
77
5C
85
84
C4
14
06
66
95
1E
04
7B
AB
92
A1
F8
15
98
32
78
05
B4
78
E1
B1
F5
CC
56
06
EC
36
66
AA
D2
DA
82
B6
AD
32
8B
62
14
45
5D
98
10
8A
BD
E2
77
69
C5
5D
C7
D9
67
23
23
C6
84
90
99
DB
C6
79
33
69
24
80
0E
98
19
08
BF
CF
4C
43
CF
C1
04
12
56
9F
23
9C
D3
C1
04
D1
97
89
5C
BE
B5
1F
54
A8
68
21
6F
33
89
5B
99
CC
A2
AE
6B
C6
E4
FD
D1
0A
B0
5A
F5
85
01
05
89
2B
43
8A
59
7D
9D
11
9F
9E
D9
B2
0B
7E
54
55
8C
C5
09
47
80
7F
3B
73
B0
43
72
D0
27
CC
6A
00
CB
7E
CE
1C
4D
F0
13
CA
D9
02
22
AC
C4
E5
EE
65
12
90
AC
6E
1B
23
B6
BC
1C
FD
C5
11
AC
58
C1
C7
65
20
BE
CD
0D
D5
4C
27
8D
30
30
29
BB
37
73
99
E4
52
C7
95
E9
0B
A3
0A
12
EA
20
44
39
FA
6A
B9
68
81
EA
25
69
AB
51
65
A4
32
E1
14
DD
32
01
EA
62
E1
7F
FD
4D
99
4B
09
4B
A3
29
9A
71
DD
37
41
B0
3B
4F
91
76
33
32
4F
F3
BE
1E
62
53
A6
E3
AE
90
C3
9A
79
F7
F8
82
77
50
02
A1
98
6F
28
2E
0D
DC
36
86
3D
FF
FB
C3
45
6B
D9
A2
18
5D
39
E9
A7
96
54
FD
6C
7E
88
0C
BB
4A
A7
11
F1
2C
83
4A
71
92
66
D6
8C
99
BC
4E
73
17
59
04
C1
2E
CC
E6
F6
0D
F8
11
9F
15
8E
E0
59
21
73
54
FF
FB
7A
C8
26
07
D9
9A
28
30
56
51
C1
0E
B1
59
E0
A2
82
78
32
FD
C8
DC
62
E2
A6
A4
38
98
59
A8
B7
8E
01
19
6A
06
AD
44
EC
F5
92
39
57
BE
D8
0C
25
EE
B7
A5
60
06
B3
55
9A
F8
80
92
BB
17
C5
4F
6F
31
C9
B8
7E
91
34
93
46
8D
E6
8C
E3
89
00
E5
44
59
AE
D0
91
2B
0A
73
25
18
A0
07
98
BB
EA
0D
0A
78
B8
F9
05
46
B2
6C
D1
17
8A
2E
1E
5A
24
02
F2
7C
DC
0F
CB
A4
9F
C6
A3
72
09
F1
1A
E4
52
8F
9C
AE
C4
EF
32
79
D0
40
0B
0B
A4
7A
AB
0E
F0
90
85
70
C5
E2
C6
6B
E7
2D
0F
9B
A2
2C
92
24
CC
AE
85
14
E7
F1
9D
20
6E
32
63
DC
BB
01
5B
CC
DE
DE
71
B8
B4
56
50
3B
06
E3
4D
21
03
45
C4
D4
87
FE
C8
06
71
96
C5
1A
C3
8B
13
FF
BA
20
EE
DA
AC
F2
18
AA
3E
BC
27
A8
72
FF
BE
A1
7B
46
C3
FD
A7
7C
C2
D7
02
76
C0
84
F1
DD
A6
60
80
A1
37
0B
7D
B0
AB
5D
7E
45
34
54
D0
9D
A8
6D
6D
6B
03
F5
E6
26
F8
B1
66
A4
82
8B
15
0F
75
57
E4
62
51
46
A6
0C
7D
71
2B
C6
48
30
66
62
FF
E2
E5
46
D8
15
44
6D
12
D3
3C
8E
B2
95
71
03
44
7E
32
E4
43
99
47
23
80
51
A8
9C
45
12
60
71
E0
98
2C
A4
9B
43
8E
4A
67
52
9A
48
07
D7
90
74
EE
52
98
8F
CB
FC
46
1D
DA
37
A0
FD
B1
C1
17
34
2C
FF
1E
A3
24
2C
B1
3F
C7
BD
3D
3B
FF
E0
09
1B
18
9D
5D
C0
22
BD
E8
20
97
B6
46
F0
98
1A
27
D2
61
49
90
DE
F0
EA
E6
04
95
14
BA
AE
E7
CD
50
7E
78
00
3E
FB
39
E2
59
6B
66
85
46
5D
6C
11
94
82
DE
BA
A8
FE
2F
6C
2C
09
A9
57
B4
A3
7A
2F
FF
F9
B9
21
47
25
D6
C8
95
C3
64
2F
8E
9D
EB
82
FF
98
77
1E
0E
27
47
43
0D
EF
5F
4E
6B
CC
A0
94
BB
44
12
4C
30
2A
DA
FF
53
B3
58
21
CA
D3
71
4A
58
82
3D
57
2B
C5
0D
34
1E
24
18
15
82
58
90
62
3B
6C
49
9C
1A
E5
AC
D7
03
94
EC
4B
44
EA
80
77
B1
7E
AD
48
7B
DF
78
72
54
2D
42
E5
2C
72
5A
F4
C4
29
2A
CE
96
5D
13
53
A2
24
AC
8C
66
90
98
A7
B6
77
AA
AB
42
6E
91
6A
19
8B
E1
CD
EA
34
C0
9F
93
1C
CB
8D
27
E3
92
49
41
1F
00
92
77
57
39
4F
9F
3B
87
9C
8F
41
B1
34
54
74
42
52
20
D4
3C
71
96
64
46
92
DA
E0
4D
80
22
98
8B
F3
6C
C3
12
DA
C2
36
74
1C
51
A1
A5
BF
24
4B
DB
D2
C6
0C
F9
3C
69
49
DC
60
CD
10
AA
F0
34
11
28
DC
2A
CD
B2
C7
20
4C
86
F4
8A
3A
B5
A2
A1
AC
34
ED
F3
D9
20
17
B6
DA
C0
F7
CA
60
BA
32
B5
53
0A
3F
1A
21
13
4E
72
C7
B2
36
AC
C3
BB
13
CB
E2
D9
CE
FC
D4
E8
28
E9
93
D1
1A
83
6F
F8
0E
35
43
33
18
EE
6D
72
08
9E
F6
00
6C
E5
FE
53
67
6A
14
DE
2A
B1
72
30
2B
B5
35
86
38
21
8E
5F
71
FA
AE
C6
9D
36
4D
2E
F7
A8
02
62
18
7F
14
8F
8B
38
3A
5C
F5
84
0A
EC
6B
9F
FD
33
8F
1A
E3
2B
11
0B
C4
DC
B0
FC
E1
01
85
E1
16
0A
D1
B3
55
4D
54
FF
03
C2
CB
E1
93
04
18
6D
DD
70
9F
2C
E5
BA
80
4C
6C
26
C0
11
0A
97
F7
43
E3
5B
65
10
2B
0C
83
98
31
39
EA