FF
00
FF
01
00
01
01
00
00
FF
01
01
FF
01
FF
FE
FF
FF
FE
00
01
FF
00
00
FF
FF
00
FF
00
00
FD
FE
FF
FF
00
00
FF
01
FE
FF
00
00
FE
FF
00
FF
00
FE
FE
FF
FF
FF
01
00
00
FE
FF
FE
01
00
FE
01
FE
01
FE
FF
FF
00
00
FF
00
00
FE
FE
FE
FF
FE
FE
00
01
00
00
FF
FF
FE
01
FF
01
FF
00
FF
01
01
00
00
FF
01
03
01
00
FE
FF
FE
01
00
FF
FF
FF
FF
01
FD
03
02
01
FE
00
01
01
FE
FF
FF
00
FF
01
01
01
FF
FD
FF
00
00
00
00
01
FF
00
FE
FE
FF
FF
FF
FF
00
FF
FF
FE
FE
FF
FF
FF
FF
00
FF
01
00
00
FF
00
00
00
FF
00
FE
00
00
FF
FD
FE
00
01
01
01
FD
FF
00
FF
00
01
00
01
FF
00
FF
FF
00
FF
FD
FF
01
01
FE
00
00
FF
00
00
FE
00
02
00
00
FF
FE
FE
FE
01
FF
FE
FE
00
FF
01
01
01
01
02
00
FF
00
00
00
FF
FF
FE
FE
FE
01
01
FF
00
FF
00
01
00
FF
FF
FF
01
FF
FE
FF
FF
00
FF
FF
FF
01
FE
FF
FF
FF
FF
FF
01
FE
00
00
00
00
02
FF
00
FF
00
FD
FF
FE
FF
FF
FD
00
FF
FF
00
FF
FF
FF
00
FF
FF
00
FF
01
00
FF
00
01
00
00
02
FF
FE
FE
01
01
FD
FF
00
00
00
00
01
00
01
FF
FF
01
01
FF
FF
FE
00
01
FE
01
00
FF
FF
FF
FE
FE
FF
FE
01
02
FE
00
FF
01
FF
FF
01
FE
00
00
02
FF
00
FF
FD
FE
00
00
00
FE
00
00
FE
FF
FF
FF
FF
FF
01
00
01
01
FF
FF
FF
FF
FF
FE
FD
01
FF
00
00
FE
02
00
FF
FF
FD
FF
FF
FC
00
00
01
00
01
02
FF
FF
00
01
FD
FF
00
FE
FE
00
01
00
FF
01
00
FF
FF
00
FD
FF
00
00
FF
01
00
00
00
FD
FF
00
FF
FD
FE
FF
FD
00
00
00
01
FF
00
00
00
FF
FF
FE
FE
FC
FF
00
FF
FB
FE
00
FF
FF
FF
FE
FF
FF
FD
00
00
FE
FF
FF
00
00
00
01
FF
01
FF
00
00
00
FD
FF
01
FF
FF
00
FF
FE
FE
FE
FE
FF
FF
00
00
00
00
01
00
00
01
FF
02
00
FF
FE
00
FF
FE
00
FF
FF
02
00
01
02
FC
00
FE
FE
FF
01
01
FD
FF
00
01
00
FF
00
01
FF
FF
FF
00
02
FE
FE
00
FE
00
FE
FF
FD
00
FF
FD
00
FE
00
00
FE
FE
FF
FE
FF
00
FF
FE
FF
FF
FF
00
FE
FE
FF
FE
FF
01
00
FC
00
00
00
FF
01
00
00
00
01
FF
FF
FE
FE
FD
FF
00
00
00
FF
FE
00
02
FF
00
00
FE
01
FF
FE
FF
FE
00
00
FF
FF
00
00
00
FE
00
01
01
01
FF
00
00
00
00
00
FF
01
01
FE
FF
00
FF
FE
FE
00
FE
FF
FD
00
00
FC
FF
00
FE
00
00
01
FE
00
FE
00
01
00
00
00
FF
00
FF
00
02
FF
FE
01
00
00
FF
00
FE
01
FF
FF
FF
FF
FF
00
00
01
01
00
00
FF
00
01
00
FD
00
FE
FE
01
FF
FF
00
01
00
FF
FF
00
02
FF
01
00
FE
FF
00
00
00
00
02
01
00
FE
FF
FE
01
00
FF
01
01
FF
02
00
00
01
00
00
00
00
00
FE
FF
01
FF
FD
FE
FE
00
FE
FF
FF
FE
00
FE
00
01
FE
FF
FF
00
00
FE
02
FD
FE
00
00
FD
00
00
00
00
01
FE
00
FE
FE
01
FE
FE
01
00
01
FF
FF
FF
00
00
FF
00
00
FF
00
01
FF
00
01
00
FE
FE
01
FE
FE
FE
00
FE
FF
00
FE
01
FF
FF
00
02
FF
FF
FF
00
00
00
00
FF
01
00
00
01
00
FF
FF
01
00
01
00
01
00
00
00
00
00
00
00
00
FF
00
00
00
00
FF
00
FF
00
00
FE
FF
FE
01
FE
00
FF
01
FF
00
00
FF
FF
00
00
FF
01
FF
00
FE
FF
FE
00
00
01
00
01
FF
01
00
00
FF
00
00
FF
FF
01
01
FF
00
FC
FF
FF
FF
FE
FE
FF
00
00
FF
00
00
FF
FF
00
00
00
00
00
01
00
01
FE
FF
FF
00
FF
01
FE
00
FF
FE
FF
00
FF
FF
FE
FF
FD
00
01
FF
FE
FE
FE
00
FF
00
00
00
00
FF
01
00
FF
FE
FE
FF
FF
00
FF
00
00
FE
FC
00
FE
00
FF
01
FF
01
01
01
01
FE
01
01
00
FF
FF
FF
00
01
FD
00
00
00
00
FF
FF
02
FE
FF
00
FF
00
00
FE
00
FF
00
FD
FF
00
01
00
FF
FE
FF
00
01
01
00
00
00
FF
00
FF
FF
00
00
00
00
FF
FE
FF
01
FF
FF
FF
01
FF
FF
00
FE
00
01
FF
00
FF
00
FF
00
FF
FF
00
FE
FF
00
FF
01
00
01
00
00
FF
FE
00
00
00
00
FF
00
00
FE
FF
FF
FF
00
FF
00
FF
01
00
00
00
00
00
FF
01
00
FF
00
FF
FF
00
00
FE
02
00
FF
FF
01
00
00
FF
00
FF
00
FE
00
FF
00
FF
00
00
00
00
FE
01
00
01
FF
FF
FE
FF
00
00
00
00
00
FE
00
00
00
00
FF
00
FF
FD
FF
FF
00
00
FF
FF
00
00
FF
00
FF
FF
FF
00
00
00
FF
00
01
00
00
FF
FF
00
00
FC
FF
01
00
FF
00
00
FF
00
00
01
FF
01
00
FF
00
00
FF
FF
01
FD
00
00
FF
FF
FF
FF
01
FE
00
FF
00
FF
00
00
FF
FE
FF
FF
00
00
00
FF
FF
FF
FF
01
FF
FF
01
FF
00
FF
FF
FF
FE
FF
00
FE
00
FE
FD
00
00
FE
FE
FF
00
FE
01
FF
FE
01
00
01
FF
FF
FE
00
01
FE
FE
FF
FE
FF
01
FE
00
FF
01
00
00
FF
00
FE
01
FE
00
01
FE
FF
FF
00
FF
01
00
FF
FE
FD
FE
01
FE
01
01
FF
FF
01
FF
00
00
FF
01
00
01
00
00
01
FF
FF
02
FF
FF
FF
FF
02
FE
00
FF
FF
FF
00
00
FE
02
00
FE
02
FF
00
FF
FD
FE
00
01
00
00
FF
FE
FF
FF
FF
FF
FF
FD
FE
FF
00
00
02
FF
FE
FD
FE
00
FE
FE
01
01
00
FF
FF
00
FF
00
FF
00
00
00
FF
01
01
FE
FB
FF
00
00
00
FD
FF
FE
01
FE
00
FD
FF
01
00
FF
FF
FC
01
01
FF
00
01
FE
00
00
00
01
FD
FF
00
00
FF
00
00
00
FE
FF
FC
00
01
00
01
FE
FE
FE
01
FE
02
00
00
FF
00
FF
FE
00
00
01
01
00
01
FF
FF
01
FD
FF
FF
00
01
FF
01
FF
FD
FF
FF
01
FF
00
FE
00
01
00
00
01
FF
FF
01
FF
00
01
00
01
FF
FE
FF
01
00
00
00
FC
00
00
00
01
FF
FF
00
FE
00
00
00
FF
00
FF
00
01
01
01
FD
FF
FF
FE
FF
00
FD
00
00
00
00
00
FF
01
00
FF
01
FF
02
00
FF
FF
00
FF
FF
00
FF
00
00
00
00
01
00
FF
00
00
FF
FF
FF
FF
00
00
FF
00
01
FF
FF
FE
FF
01
01
FF
FF
FF
FF
01
FE
02
FE
FE
FE
FF
FF
00
FE
FF
01
00
00
FF
FE
01
01
FF
FE
00
00
00
FE
01
00
FE
FD
FE
FD
00
FF
FE
01
FF
FF
01
00
01
00
FE
01
FE
00
00
00
00
FF
00
FE
02
01
00
FF
FF
00
FE
FF
00
00
01
FE
00
00
FF
00
00
00
FF
00
FE
01
FF
FD
FD
00
FE
FF
00
FE
00
00
00
FF
FF
00
FF
00
00
00
FF
00
FF
FF
00
00
FF
FF
00
FE
01
FF
FE
00
FD
FF
FF
01
00
FF
FF
FE
01
FE
01
FF
FF
FF
00
FF
01
00
FE
01
FE
FF
FF
FF
FE
01
00
FE
01
FE
01
00
FF
FF
FF
00
00
FF
FF
FE
FF
00
FF
FF
00
FF
00
00
00
00
00
FF
FE
00
00
FF
FF
FF
FE
FF
00
01
FF
01
00
FF
FF
00
FF
FF
FF
01
FF
00
00
00
FF
FF
FF
01
FF
FF
FF
FE
00
02
01
01
00
FF
00
FE
00
00
01
FE
01
FF
FE
01
01
FF
FF
FE
00
FF
FF
01
01
FE
00
FF
FE
00
FE
FF
00
FF
00
FE
00
00
00
00
01
FF
FF
FF
FE
00
FF
FE
00
00
00
00
00
00
00
00
00
FF
FF
00
00
01
FF
FF
FE
FD
00
FD
00
FE
02
00
00
01
FE
FF
00
FE
00
FF
FF
00
00
FE
01
FF
00
FF
FF
FF
01
00
00
01
FF
FE
FF
FF
01
FF
00
01
FE
01
00
FF
FF
00
FE
FF
00
FF
02
00
00
00
01
FE
01
00
00
01
01
FE
00
00
00
00
01
FE
FC
FE
01
FF
FE
FE
01
00
00
FE
00
00
FF
00
00
00
00
FE
FF
00
FF
FF
01
FF
00
FF
00
00
FF
FF
FF
FF
01
00
00
00
FF
00
00
00
FE
00
FF
FF
00
FF
FF
00
FF
00
00
FF
00
FF
FF
FF
01
FF
FF
00
00
00
FF
00
FE
FE
FE
FE
01
FF
00
01
00
00
00
FF
FF
FF
FF
00
FE
FC
02
FF
00
FF
FF
FE
00
FF
FF
00
FF
FB
FE
FF
00
FF
01
00
FE
FF
00
FF
FE
FF
FE
00
FF
FF
FE
00
FF
00
FE
01
00
FF
FF
00
FE
02
01
00
FF
FF
FF
FD
01
00
00
FF
FE
00
01
00
00
FF
01
FE
FF
00
FF
01
00
FE
00
FF
01
00
00
FF
01
01
02
FF
00
FD
00
00
00
01
00
00
FF
FE
00
FF
00
00
01
00
00
FD
00
00
01
00
FE
FF
00
00
FF
FE
02
01
FE
FF
00
FD
01
00
00
00
00
FF
01
FE
00
02
00
FF
FF
00
00
FF
FF
FF
00
FF
FE
FF
00
00
FF
00
FF
00
FF
00
01
FE
FF
FF
01
FF
FF
01
00
00
FF
00
FF
FF
01
FD
00
01
FF
FF
00
FF
FF
FD
00
00
FF
FE
00
00
00
FF
FF
00
00
FF
00
00
00
FE
00
FF
FF
FE
01
FE
00
FF
00
00
FF
FF
00
FE
00
FF
00
00
FF
FF
01
FF
00
00
FF
01
FF
00
00
00
01
FF
00
00
FF
FF
01
00
00
FE
00
01
00
00
FF
FF
01
FF
FF
FF
00
FD
00
FD
FF
FD
FF
00
FF
01
00
FE
00
FF
00
01
FF
FF
00
FF
FE
01
00
00
FF
00
FE
FF
01
00
FF
00
00
FF
01
FD
02
FF
01
00
FF
FE
FF
FE
FE
FF
00
00
FF
FE
01
FF
FE
00
01
00
FF
FF
FF
FF
FE
00
01
00
FE
FF
FE
00
01
FF
00
FE
FF
00
FF
FE
FF
00
00
01
01
01
FF
00
FE
FE
01
01
FE
FF
FF
00
FD
FD
01
FF
FF
FE
00
00
FE
FE
01
01
FF
FF
FE
FE
00
FF
01
00
FF
00
00
FF
FF
FF
00
00
FF
00
01
00
FF
FF
01
01
00
FF
00
02
00
FD
01
FE
00
00
FF
00
FF
FF
01
00
FF
FE
01
FF
FF
FD
01
FE
FF
00
FF
00
FF
FF
01
01
00
FF
00
02
FE
00
00
02
FF
FE
01
02
FF
FF
01
00
FF
FF
FF
02
00
00
00
02
00
00
00
02
FF
00
01
FF
00
FF
00
02
00
FF
01
01
FE
FE
00
04
00
00
00
00
FD
FD
FF
05
01
FE
00
FD
FD
FF
01
04
01
FC
01
FF
FC
FF
01
04
00
FF
00
FE
FD
FC
FF
03
FE
FE
00
00
FE
00
01
00
FF
01
FF
FE
00
FF
FF
00
FE
FF
FF
FE
FF
00
FF
00
FF
00
FF
FF
FF
00
FF
01
FF
00
00
FF
FF
00
FF
00
FF
00
FF
FF
00
FF
00
00
FF
00
FF
FF
00
FF
00
00
FF
01
01
FF
00
01
00
00
FF
00
00
FF
00
FF
00
01
FF
01
FF
FF
00
00
00
01
00
FF
FF
FE
00
00
01
FF
00
FE
FF
FE
00
01
01
FF
FF
00
00
00
00
FF
01
FF
00
FF
00
FF
FF
01
00
00
00
00
FF
FF
FF
00
00
00
00
00
00
FE
FF
00
01
FE
00
FD
FF
FF
00
00
00
FE
FF
FF
00
FF
FF
00
00
00
FE
00
FF
FF
00
00
01
FF
00
FF
FF
00
FF
FF
00
FF
FF
FF
FF
FD
01
00
01
FE
00
FF
FF
FD
01
01
00
FE
FF
01
00
FF
01
00
00
FE
FF
01
FF
FD
02
00
00
FE
00
00
FF
FF
01
01
01
FD
01
01
00
FD
01
FF
FF
00
01
02
00
FF
00
00
FE
00
00
00
FF
00
FF
FF
FF
00
FE
00
FE
00
00
FF
FF
00
FF
00
00
00
FF
FE
00
00
FF
00
FE
00
00
00
00
FF
00
FF
FF
FF
00
00
FF
FF
FF
FF
FE
00
00
00
FE
00
FF
FF
FF
00
00
00
FF
00
00
00
FE
FF
00
01
FE
00
00
00
FF
FF
FF
00
FF
FF
FF
00
FF
00
FF
00
FE
FF
00
00
FF
FF
FF
01
FF
FF
FF
01
FE
00
FF
00
00
FF
FF
00
FE
00
00
FF
FE
FF
FF
00
FE
00
FE
00
FF
FF
00
00
FF
FE
FF
00
FF
FE
FF
FF
FF
FF
00
00
FE
FE
FF
00
FE
00
00
00
FF
FF
00
FF
FE
FF
FF
00
FF
FF
FF
FF
FF
FF
FE
01
FF
FF
01
00
FF
FF
FF
00
FF
FE
00
00
FF
00
FF
00
FF
FE
00
FE
FF
00
FF
00
00
FE
FF
FF
FF
00
FE
00
00
FF
00
00
FF
FF
FF
02
FE
01
00
FF
FF
00
01
00
00
00
FE
FF
FF
00
01
00
FF
01
00
FF
FF
FF
02
01
00
02
FF
FF
FF
FF
01
FF
FF
00
FE
FE
00
02
00
FF
FF
01
00
FE
FF
FE
FF
FF
00
00
01
FF
01
FF
FF
00
01
01
00
FF
FF
FF
FF
FF
01
01
FE
FD
00
FF
FE
FF
00
FF
FE
FF
FF
FF
FF
00
FD
FF
00
FF
FF
FE
00
00
FE
FF
FF
FF
FD
FF
00
FF
FE
00
00
00
FF
00
00
FF
FF
00
FF
00
FF
00
00
00
FF
FF
00
FF
FF
FE
00
FF
00
FD
FF
00
01
FF
FF
00
FF
FE
00
01
FE
FF
FF
00
FF
FF
FF
02
FE
FE
FF
FF
00
FF
FF
00
FE
FF
FF
00
FF
FF
01
FF
FF
FF
00
00
FE
FE
FF
00
FF
FF
02
FF
FE
FC
FF
00
FF
00
00
FF
FE
FE
00
01
FE
00
02
00
FE
FE
FF
01
FF
FF
01
FE
FE
FE
00
00
FE
FF
01
FF
01
FF
FD
02
00
00
00
FF
FF
00
FF
00
FE
00
FF
FF
00
00
FF
00
FE
00
FE
FF
FE
00
01
FE
FF
00
FF
01
FE
FF
01
FF
FE
01
FF
00
FE
00
00
00
FE
00
00
FF
FF
00
00
FF
FE
01
FF
01
FD
00
00
00
FE
01
FF
00
FF
00
01
FF
FE
01
00
FF
FF
00
01
FF
FE
00
FF
FF
00
00
FF
01
FD
FF
FF
00
FE
FF
00
00
FE
00
FF
FF
00
FF
00
FF
FE
01
FF
FF
FF
00
00
00
FE
01
FE
01
FE
00
FF
00
FE
FF
FF
01
FF
FF
00
00
FE
FE
00
FF
FE
FF
00
00
FE
FF
00
00
FF
FF
FF
00
FE
00
FE
00
FE
FF
00
FF
FD
00
00
FF
FE
FE
FF
00
FE
FE
FF
00
00
FE
00
FF
FF
FE
FF
00
FF
FE
00
00
FF
00
FF
00
FE
FE
00
00
FF
00
FF
FF
FF
FE
00
FF
FF
00
00
01
FF
FE
00
00
FF
FF
FE
00
00
FF
FE
FE
FE
00
FF
00
FF
FE
FE
FF
00
FE
00
00
FF
FD
FE
FE
FF
FE
FF
00
FF
FE
FF
FF
FE
FF
00
03
FF
FF
00
FF
00
FF
FF
01
00
FF
00
00
FF
00
00
01
00
FF
00
00
00
FE
01
00
FF
FD
00
FF
00
FE
02
FF
00
FE
00
01
00
00
00
00
02
FE
FF
00
FE
00
01
01
00
FF
00
01
FF
FF
00
01
01
FF
FE
FF
FF
FF
01
01
FF
00
FE
FE
00
FE
01
00
00
FF
FF
FF
FF
FE
FF
01
01
FF
FF
01
FE
00
01
01
FF
00
FF
00
FE
FF
FF
00
FF
00
FE
FF
FF
FF
00
00
00
00
FE
00
FF
FF
00
00
FF
FF
00
FF
00
FF
FF
00
00
FF
FE
00
FF
00
00
02
FF
FF
02
FF
FF
00
00
00
FF
FF
FF
FE
FF
00
FF
01
FF
FF
FF
FE
FE
FF
FF
01
00
FF
FE
FE
FE
FF
00
01
FF
FF
FF
FD
FD
00
00
00
FF
FF
00
FE
00
01
FF
01
FE
01
02
FF
00
00
FE
00
FF
00
00
FF
FF
01
FE
00
01
FF
FE
FF
00
00
FE
FE
FF
FE
00
FF
01
FF
FF
FD
02
00
FC
01
FF
00
00
FF
FF
01
01
00
FD
FE
FF
01
FF
01
00
00
FE
00
FE
FF
00
00
FE
FF
FF
00
FF
00
FB
00
02
00
00
01
FF
FE
FE
FF
FD
01
FF
00
FE
FF
FF
FF
00
FF
00
FF
FF
00
00
01
00
01
00
FF
00
00
FE
01
FF
00
00
00
00
FE
FE
00
02
00
FF
FF
FF
FF
FF
FF
FD
00
00
FF
00
FF
FE
FF
00
01
FF
00
01
FF
FF
FF
FE
FF
00
FF
FF
FF
FE
FF
FF
00
FF
00
01
01
FF
FF
02
02
FF
FF
00
FE
01
FF
FE
01
FF
FE
00
00
00
FF
00
00
FF
00
02
FF
FF
FE
FF
01
01
FF
01
FF
00
FF
FF
01
FF
FF
01
FF
FF
00
01
00
FE
FE
01
FF
FD
00
00
FC
FE
FE
FF
FF
FF
FF
FF
FF
00
00
01
00
FF
FF
00
FE
FE
FE
02
FF
FF
FF
00
01
FF
FF
01
FE
01
FE
00
FC
FF
FF
00
00
FE
FF
00
FF
FF
FF
01
FF
FF
FF
00
00
00
00
01
FE
00
FE
FF
00
01
00
00
FF
FF
FE
00
00
FF
01
00
FF
00
FF
FF
FF
00
FF
00
FF
00
FF
02
00
01
01
00
FF
FF
FF
FF
00
00
FF
FE
FF
FE
FE
FF
FF
00
00
00
FE
FF
FE
01
00
01
01
00
FF
01
FE
FE
FE
00
00
FF
FF
00
00
01
FF
01
FF
FF
FF
00
FE
FF
00
00
FF
01
FE
00
FE
00
FF
01
FF
00
FE
01
FE
01
00
01
FF
01
FF
00
FF
FF
01
01
00
FF
FE
00
FF
00
01
02
FE
FB
00
02
FD
FF
00
01
FF
FD
00
01
FE
FF
FE
02
FF
FC
FF
00
FF
FF
00
02
FF
FD
FE
01
FF
FC
01
01
01
FC
FE
FF
FE
00
00
01
00
FE
FE
01
FE
01
01
00
FF
00
FE
FF
FE
01
00
01
00
FF
FF
FF
FE
00
02
00
00
FF
FF
FF
FF
01
FF
FF
FF
FF
FF
FE
00
01
FF
00
00
FF
FE
FF
FF
FF
FF
00
00
00
FD
00
00
00
00
FF
00
01
FF
FF
FE
01
00
00
00
FF
FC
FE
FF
FF
FF
00
00
00
FE
FF
FF
FF
FF
01
02
00
FF
FF
02
01
00
FF
00
00
00
FE
FF
00
00
00
FE
00
FE
00
00
00
00
FF
FF
00
FF
FF
00
FF
00
00
00
FF
FF
FF
01
FD
FF
00
03
FE
FE
FF
01
FF
FC
00
01
00
FE
00
00
01
FD
FF
02
FF
00
FE
01
00
FE
00
00
00
FE
FE
01
FF
FD
01
02
FE
FE
FE
04
FD
FF
00
03
FD
FD
FF
03
00
FF
FF
FF
FD
00
FF
03
00
FE
FF
01
FE
00
FF
03
FE
FF
FE
01
FE
FE
FD
03
FE
FE
01
01
FD