FFE3
00B8
FF96
0158
0093
0133
0129
00FA
0080
FF42
0153
011E
FF31
0196
FF38
FE82
FFA2
FF28
FEF3
00E1
016C
FF13
0018
006E
FF13
FF1A
003A
FF06
00B9
0072
FDB4
FEC8
FF77
FF41
00D6
0040
FFDB
01DC
FE9F
FF7B
00AC
009A
FE8A
FF80
0045
FFCF
0001
FED6
FEA0
FF41
FFAE
FF23
0191
0047
00F8
FE4D
FF9D
FE55
017D
0027
FE8F
01A0
FEDC
0166
FECD
FF6A
FFCC
0025
004B
FF0D
00B0
007B
FEE2
FE9B
FE2A
FF57
FEF4
FEFC
005E
0192
0066
0029
FF2F
FF80
FED4
0158
FFD1
0105
FFDF
0004
FF3C
0170
01C8
00EA
002F
FFF6
01FD
0360
0192
00B3
FE5E
FF8A
FE15
011C
00E3
FF4A
FF75
FF0E
FFC3
01EB
FD0E
030E
0276
0171
FE88
00AB
016B
0101
FEE1
FFAB
FF54
009B
FFE9
018F
015D
012A
FF82
FD51
FF22
0051
00B1
0040
0089
019D
FF01
0032
FE0F
FEB8
FF60
FF67
FFE9
FF3A
0072
FFA5
FFF7
FED7
FE3D
FF68
FF44
FF62
FFD8
008E
FFDA
0181
0000
00AD
FF9F
00D1
0081
007D
FF71
007F
FE13
0005
00EC
FFCD
FDFB
FEEB
0072
01B9
012B
01C8
FD88
FF58
0032
FF86
00AA
014B
0023
01AC
FF1D
00FF
FFF2
FF26
00C6
FFBE
FDB6
FF52
0100
0131
FEFE
00B6
0077
FF5C
00CE
0080
FE6C
002D
021A
008B
0076
FF55
FEAA
FEE2
FEA4
0171
FF14
FEFB
FE3F
004F
FF0C
0178
0101
019E
0112
022E
00B8
FFFB
000F
00B1
0053
FF62
FFBE
FEEC
FE66
FEB9
013F
01B1
FFCA
00EE
FF98
00FF
0137
008B
FF95
FF25
FFA8
0117
FF55
FEF8
FF49
FF76
00A0
FF99
FF9F
FF3D
01EC
FE83
FF06
FFBA
FF60
FF97
FF32
0161
FE1C
0055
00A9
008B
0050
028E
FF4D
0046
FF51
0084
FDC9
FF73
FEBF
FF64
FF5E
FDCF
0021
FF44
FFEE
002D
FFBF
FF2D
FF1E
002E
FF80
FFD6
00FE
FF70
0119
005D
FFD3
0062
01B6
0088
00FA
0222
FFDA
FE9B
FEC5
0182
016A
FDA3
FFA0
0057
0094
003B
00CF
0114
0068
0108
FF26
FFF0
016E
018F
FF51
FFD0
FE77
00D3
0155
FEFC
0125
0057
FF58
FF68
FF5A
FEC1
FEA8
FF73
FEEB
0151
02A9
FE96
007E
FFD4
0198
FF66
FF99
0140
FED4
009A
0070
0277
FFDE
001F
FF85
FD8F
FED6
00A0
0047
00F9
FE3E
00E8
0037
FE48
FF0D
FFDA
FFC5
FF7C
FFF6
0173
0095
0113
01B8
FF35
FF30
FFA2
FFF7
FFF0
FEF4
FD9F
01B4
FF32
0081
00A9
FECA
028C
0029
FF99
FF74
FDD8
FFCB
FFEA
FCEE
004D
00BC
0199
0066
01B4
0226
FFCA
FFD1
00C5
01CA
FDFE
FF6E
0026
FE40
FE9E
0063
0149
002C
FFB9
01B2
0027
FF97
FFB2
0082
FD29
FFEC
003D
004A
FFA7
015A
00F3
0052
002F
FD16
FF69
0061
FF0C
FDFD
FEA0
FFEF
FDFA
00AE
002D
00A7
0164
FFC3
0080
000C
0049
FF4E
FFC7
FE6E
FED4
FCCC
FFFD
00F6
FFDF
FBA8
FE30
0041
FF75
FF2C
FFDE
FE92
FF75
FFF6
FDFF
00EE
004B
FEF7
FFA5
FFB2
002B
0085
008E
0193
FFC3
0183
FF73
009B
0084
00D1
FDF4
FF23
01B9
FF2B
FF82
008E
FFD5
FEB0
FED4
FE61
FE73
FFC6
FFD5
00CC
00D7
00E6
00DA
01B6
0081
00C6
01F1
FFD6
02F5
00B7
FF1D
FE06
00EA
FF79
FE18
0047
FFA0
FF64
022C
00CA
0128
025D
FC80
00A5
FEE2
FE74
FF02
015D
0183
FDED
FFAB
009C
01AA
005C
FF99
0038
0187
FFAB
FF95
FF89
0047
0258
FE03
FE68
001D
FEB1
0023
FE64
FF97
FDCC
0062
FF5D
FD46
0056
FE3E
0012
006F
FECC
FE93
FF9F
FE9C
FF16
0065
FF3D
FEF9
FFB0
FF1B
FF42
007A
FE39
FE47
FF70
FEC4
FF3F
0146
0008
FC6C
002D
0088
00E6
FF48
011B
00A1
0059
005F
0186
FF85
FF71
FE3A
FE41
FD9C
FFAE
0066
0072
00A9
FF3C
FEC0
002E
0253
FFD0
0036
0042
FEF1
0167
FFF3
FE4B
FF83
FEE7
00B5
00C8
FFBA
FFBE
0034
0022
004D
FED1
0053
0155
01E7
0131
FF54
000E
00BA
0052
0057
00EC
FFCF
0154
0140
FE61
FFFF
0045
FF93
FE3D
FE12
0085
FE9E
FFFD
FD47
0092
002B
FC9A
FFD9
00A9
FECA
005E
0030
01BE
FE64
00F3
FEED
005F
0149
00F3
0040
005D
FF53
00FE
FFF4
0010
023B
FFB9
FE77
0125
0053
0008
FFD8
0058
FE28
0135
FFC0
FFA0
FFFB
FF60
FF8F
0037
00D8
01EB
0139
0020
00CA
FFCB
00E4
014B
00E6
FDCB
005D
FE49
FEBF
010B
FFF0
FF27
0063
01C2
00CB
FF76
FFB3
00E9
027A
FF76
0111
00A8
FE64
FF5A
0064
0034
006A
00C1
02A3
0125
0089
FECC
FF4F
FE36
010D
0012
FFDC
0160
017B
FFA7
0254
0082
00D4
0105
0020
0004
003B
0046
008A
FE81
FF1B
0123
FFC9
FD6D
FE6B
FE88
00B0
FEA6
FFDE
FF47
FEE0
00FB
FEF8
00B9
01C6
FEAB
FF25
FFE8
0093
00AB
FE07
020D
FDE2
FEB4
005D
0097
FD81
0007
006A
0028
005E
01CB
FEE4
00D6
FE49
FE0D
0108
FEC8
FEEC
0161
00DB
0115
FF20
FFE8
FF5B
006E
001D
FFBA
000B
0012
FFBF
006F
010C
FFF9
004D
01B9
00CC
FE3A
FE44
0178
FEE0
FEB2
FEE8
00C7
FE96
FF2D
00A2
FE7C
011F
FFAD
FF69
007D
0218
FFED
FF60
FF3C
0076
00AA
0006
0087
FF70
0122
0020
000E
01D6
00F7
FF3F
FF8B
0112
005B
013C
0008
01A6
007C
0040
0048
00F1
005D
002A
0003
0058
FF53
006C
0001
003C
00FC
FF14
0019
FFD3
001C
003A
FEBD
FF8C
FE98
0148
FE69
0070
FF30
0110
FFBB
0039
0068
FFBB
FFB4
0053
00D9
FFAF
0129
FFA7
00CF
FEF8
FF91
FE83
00D3
0018
015E
0071
0104
FF4E
0199
0018
005B
FFC2
00B1
00EE
FF58
FF47
0166
0195
FF60
00EB
FC1E
FFD5
FF23
FF97
FE57
FEDD
FF95
00F3
0021
FF2C
00F7
0060
FFA3
FFAE
003D
00C2
00D0
00F5
00AC
013C
0012
0157
FEA9
FFB7
FFFA
0010
FFE1
0114
FEE2
00CC
FF82
FECE
FFB0
0069
FF4D
FFEE
FEC9
FF52
FD5D
0063
01DC
FFF3
FECD
FEB5
FED2
000B
FFCF
00FF
004B
007B
007C
FF43
017B
0018
FF58
FEDB
FE86
FFC1
FFDC
00BF
FF45
003B
0061
FEBC
FCD8
007D
FE97
0041
FFA6
01AA
FF9C
0130
014D
0168
016A
FEF5
0116
0156
00B2
FFED
FFBB
FFED
003E
01C3
FD42
006B
00CA
003D
008B
FF76
FF6F
0279
FE7B
FFDB
00EB
FF95
00DE
006E
FE93
00C1
FF35
0019
FD0A
FF11
00D2
0143
000E
FFD0
FE6E
FF1C
005D
0187
0137
00D8
00F2
00D2
FFF7
0073
FFDE
FF05
0089
00E0
009A
0069
FFAD
FEF1
FF74
0164
FF19
FF82
FFF0
0181
FF4B
FFCC
0034
FE6E
003E
0130
FFB4
00E7
FF4A
007E
FF2D
00A2
FF3A
FF76
00AA
FEB7
FF8D
00E6
FF36
01DC
0078
016B
00D8
00A4
FF27
FE11
00B7
00DF
0031
00F1
FFFE
0009
0097
FEE5
FF89
FF91
FF8E
00AC
FF6B
0027
FFD2
0134
00BB
0010
00CA
00BB
0071
FFBF
015B
00AE
FF92
0026
FFA6
FFFA
0065
00DE
FE87
0218
0029
FF01
FFDA
0194
0078
0087
FF79
000E
FF53
005D
FEB8
0077
FFCE
0037
FFF6
0063
002C
0045
007B
FEA8
012C
0035
01AD
FF68
FF32
FE56
FF75
00B6
0006
00EB
008E
0083
FE7F
001E
00E6
0010
006A
FF53
0000
FF78
FD11
FFE1
FFEF
0058
00FE
FF52
FF1F
0091
0091
FFDD
006F
FF9C
FF87
FFEF
0082
0080
0099
FF1F
0058
019D
0031
007C
FF95
FF4C
0054
006C
FC80
FF72
01C3
0052
FF30
003F
009F
FF39
0057
0076
01AB
FF17
0135
00A6
FFA7
0026
002E
FF99
FF39
01AB
FDBD
0033
00C9
FF5C
FF34
FF3B
FFE9
013D
FE4F
0031
FF77
00A1
FFE0
0000
0076
FF4E
FE3F
FF7C
FF2B
00A4
00DC
0032
FF84
FFF6
FFC6
FFF6
011B
FF85
FFB9
010C
FFE7
00FD
FF06
FFC8
FFCA
FEBD
FFB1
0097
FE81
0028
FE95
FDAE
0076
0023
FEBA
FE50
FFD1
00FE
FEFF
0149
FFFB
FEF6
01BF
0044
0107
FFBB
FF8D
FED9
0073
0194
FEF7
FEF1
FF63
FECE
FF2A
01A0
FE5D
00ED
FF4B
0101
0033
0012
FFDD
00C8
FEF5
01FA
FEB9
0024
0128
FEDC
FFDE
FFF1
00E8
FFFF
0184
004B
FF61
FEC6
FDE8
FE60
0181
FE1B
018E
0174
FFEA
FFB3
010A
FF58
004C
0075
FFAE
011B
001B
017D
006C
00DF
0118
FFDA
FF74
0201
FF38
FFFF
FFC1
FFBE
0260
FEDE
00BB
FF5A
FF49
FF1C
00F6
00F7
FE3F
026A
004C
FE15
0299
FF74
003F
FFCA
FD84
FECF
0083
0124
001A
00B9
FF27
FEFC
FFFE
FF2F
FF8C
FFE5
FF32
FD65
FED1
FF54
00E3
005F
026D
FFA6
FED7
FD9A
FE6F
0023
FEFA
FE9E
0160
0101
0000
FF85
FFF2
0038
FF6E
0041
FF52
00B0
0014
002F
FF6C
010E
014D
FE0E
FBDE
FFB8
00AF
0052
0063
FDE4
FFDC
FEEA
0169
FEA7
0085
FDB7
FF5C
0167
007E
FFBB
FF63
FCAA
0141
011B
FF0F
00C3
012E
FE95
00B3
0063
005A
0114
FDA6
FF46
0099
004F
FF3D
007D
0035
0097
FE91
FF91
FCEF
00A9
019A
0084
0126
FE92
FED1
FE78
010D
FE00
0217
00F5
00F9
FF9A
008D
FF2E
FED6
00D3
001B
013D
0114
001C
0105
FFD3
FFC6
015C
FD48
FFD3
FF0F
0039
0184
FF54
0107
FF71
FDF2
FFF4
FF26
0117
FF0B
0007
FE85
002F
01B3
0049
00B3
013A
FF4A
FFC7
0125
FF19
00CC
01A1
00F2
0167
FFB2
FEFE
FF09
014F
0005
00C9
0016
FC8F
00DF
009A
0087
0135
FF81
FFCA
00ED
FE1E
0056
0091
005F
FFCC
007F
FF3A
00F0
0151
013E
013F
FD73
FF98
FFD8
FE48
FFB4
0076
FDE5
0001
00D0
00E8
003C
00EF
FF40
0194
00B3
FF33
018A
FFB6
0204
00C4
FF72
FFE4
00A1
FFED
FF31
0037
FFEE
00C9
006A
00D5
00E2
015D
00F3
FFD0
007F
00B8
FFE7
FFB0
FF52
FF2B
002B
006D
FF3B
00E5
012C
FFE5
FFD6
FEE3
FFAA
0120
01C0
FF5A
FFF5
FFD1
FFB3
01C2
FEFC
026B
FEA8
FE8C
FE55
FF7C
FF4C
0085
FEE0
FFA9
0165
00FD
0060
FFE1
FE89
0155
0132
FFA2
FECF
0017
00CD
00F0
FED7
01D2
004D
FE8F
FD9A
FE6B
FDA8
0072
FF44
FE67
0159
FF82
FFBA
014B
0050
0119
007B
FE46
01A3
FEB2
00E5
005F
0051
00F6
FFAC
0071
FE26
021C
0135
00BC
FFDC
FF21
0079
FE6F
FFFD
007A
002A
0184
FE05
00A1
00CF
FF66
0003
001E
004A
FF3A
00EE
FEC3
015E
FF6F
FDB1
FDA7
00C1
FEC8
FFDB
009A
FEE1
0052
0088
0026
FFE2
FFE1
0006
FF14
006A
0067
0029
FF51
0024
FF94
FFCC
007E
00D7
FF7D
FF25
0037
FEE9
010C
FFCB
FEAD
002A
FD7D
FF68
FFE6
0126
0026
FFCD
FF76
FEAE
0109
FE99
013B
FF94
FFDD
FFEA
004C
FFB5
014E
002F
FEB4
010A
FEFC
FF7E
FF05
FFD4
FED8
01A8
004F
FE31
01C5
FED4
017F
004C
FF99
FF5A
FF72
0062
00BB
FFDE
FFA3
FE37
FF44
008F
FFAA
FF3B
0046
FFD6
000D
00C3
0009
0013
003D
FF9A
FEEB
0003
0017
FF3B
FFB1
FFD2
FEC4
FFC9
001A
0194
FF21
0133
004D
FFD7
FF1D
00A8
FF5B
FFE7
FF9F
0136
FF9D
007F
00E7
0047
FFD4
FF5E
FF3B
013E
FFAE
FFE3
FF87
FEB1
006F
02BE
0101
01AA
0071
FF72
009A
FEC1
0036
00D4
017C
FEAE
0164
FF1D
FEA8
0139
013C
FFF3
FF3E
FEE5
007B
FFB4
FF7B
0115
010D
FEFC
001D
FFC7
FEAE
00C0
FE65
FFB1
00CC
FF09
0028
FEEF
0011
0061
0019
0094
0148
FFB0
FF5E
FF5B
FE74
00A1
FFA1
FE62
007E
00F0
0011
0023
009B
003A
0050
0027
0020
FF76
FFE6
00E3
0014
0189
FF73
FFC6
FE7E
FDC5
0070
FDFD
0013
FE32
0220
0088
00C9
0169
FEBD
FFFC
003E
FEDD
0062
FFB0
FFB2
0021
00F3
FE7B
01CA
FF06
006A
FFF1
FFEC
FF9D
019C
00B9
007F
0105
FF03
FE64
FFAC
FF0F
012D
FF44
00AC
01AD
FE20
0180
0056
FF6E
FFD6
008A
FEB1
FFC1
00DD
FF0C
0222
004A
0011
000F
0194
FEFE
016D
0009
008A
0190
013F
FEAD
005E
00FD
0012
00CE
0198
FE84
FCF3
FEDE
0100
FFF6
FE75
FED7
013F
0099
0084
FEAA
0078
00AC
FF6D
00DE
0060
005B
00B9
FE96
FFEC
0029
FFAE
FFFD
010B
FFD3
00DD
FFA6
000B
00D4
FF9F
FFD9
FFBB
FFD6
012F
00BA
002B
006A
FF2E
009E
0065
00B6
FE3C
0033
FF27
FFCE
0004
FF57
FF87
007B
FF97
0004
0070
FFCC
0014
FFB8
FF86
FFEE
015F
FF5C
FFCD
0061
0004
0063
FFE7
007F
FEB9
FEA3
FE91
FE46
0118
FFB6
00EC
016F
00B9
005D
0047
FFAE
FFC3
FF70
FF8F
00A8
FEFE
FCE4
0286
FFFC
0099
FF15
FFDF
FE75
00BD
FFBA
FF90
00C6
FF0B
FBBC
FEBC
FF79
000A
FF50
011D
006D
FE0E
FFF2
003D
FFA7
FEC3
FFF0
FE5F
00E5
FF91
FF57
FEE2
0044
FF82
00AE
FE98
0139
0076
FFB0
FFFD
0063
FE1F
0213
012A
0048
FFFE
FFF4
FFC2
FD85
01A7
0066
0061
FF72
FEE8
00F1
01D0
0093
004E
FFE0
0193
FE25
FFC6
0090
FF6B
011B
0077
FE77
008D
FFA4
0144
002B
00DB
FF4B
011C
01DA
020F
FF9D
0017
FD8D
0029
0036
00C7
016D
00A8
000E
FF5A
FEDE
007C
FF2C
007F
00DA
0110
007D
006F
FD42
0012
00A5
017E
0068
FED3
FF77
0035
0070
FFB8
FE64
0271
01CE
FEFF
FFAF
00AA
FD2E
015D
00AF
0027
008E
00EC
FFDA
01C3
FEB5
0001
022D
0044
FF62
FFD9
0020
00F0
FFE5
FF5F
FFE5
0045
FFA4
FEF5
FFF4
0092
006A
FFE7
0001
FF79
0098
FF57
0000
01AE
FEE0
FFB5
FF36
017F
FFCC
FF5F
01C1
0053
00BC
FF8E
007D
FF8C
FFCC
0134
FD41
0089
015F
FFA1
FF1E
00E9
FFE0
FFEC
FDF7
00A1
00FB
FFF9
FE9F
0091
002C
007C
FF40
FFEE
0023
001C
FF4F
0079
0041
0059
FECF
0092
FFAD
FF14
FEFE
0141
FEF8
00A0
FFDA
00E0
00C8
FF71
FF48
006A
FEA6
00D2
FF94
00A7
0081
FFE6
FF55
019B
FF5D
0096
0088
FFE0
0144
FF8A
0048
0003
00AF
016D
FF72
00AD
0048
FF88
FF32
010C
000F
005F
FEF3
00D4
0115
0037
000F
FFF7
FF4E
0101
FF5B
FFB8
FF0B
0010
FD59
0053
FDB8
FF61
FDE6
FFBB
0050
FF1F
0109
0033
FEDC
000B
FFB3
0033
01F9
FF92
FFC4
0093
FF05
FE76
0142
000E
0049
FFB7
0091
FED9
FF68
016E
006C
FFA2
00B7
007C
FF6D
014C
FD4E
02A1
FFE5
0132
0088
FF63
FEBC
FF41
FE69
FE33
FF79
0081
009B
FFCE
FE0E
014F
FF84
FED0
00AC
01A8
0075
FF8A
FF86
FFF8
FF0B
FE05
0044
015F
004E
FED9
FFB2
FE3F
000E
0103
FF96
00BA
FEEA
FF5C
0051
FF99
FEE9
FF5D
007B
0028
0193
0115
0131
FFA9
0036
FE23
FE67
012F
012D
FE5C
FF18
FFAA
001C
FDB0
FDE3
0135
FF8A
FF2E
FE54
0091
0067
FE27
FE7B
01E8
0173
FF24
FFAF
FEBC
FE5B
0013
FF06
01B6
0037
FF70
0040
0050
FF66
FFC2
FF3A
00A6
0037
FF06
002B
01C0
0094
FFAD
FF6D
016F
0195
0014
FF4B
0086
0281
003A
FD1E
01AA
FECB
009F
00CE
FFED
006E
FFE1
FFE7
0172
00A0
FFC8
FE72
012F
FF8D
FFDE
FDDC
01A8
FECE
FF9B
004C
FF96
0086
FF65
FF2D
0127
01FA
001D
FF8D
0093
0284
FEE1
0096
005E
02AE
FF75
FE59
010B
02F1
FFCA
FF22
0149
00C9
FFC1
FF11
FF5F
02E8
0033
00A0
007A
0226
00C9
004D
00F9
0223
FFC9
00FF
0176
FF2C
0027
FFAD
00AF
0283
0040
FF9E
0137
01F9
FEFE
FEF3
00C3
0431
0054
0079
00E6
00F3
FDCF
FD9D
FF83
0521
0127
FED0
002B
FDFE
FDDF
FFD6
017C
04AC
0114
FCE5
0155
FF80
FC61
FF1E
0184
0402
003E
FF5D
00AD
FEE5
FDF9
FCD4
FFEA
035E
FE9C
FE01
0077
00D6
FEA5
0071
019C
0064
FF4A
0134
FF4D
FE6B
0079
FFCC
FF85
0035
FEC2
FFE8
FFAF
FE8F
FF78
0064
FF4C
00A8
FF46
0069
FFD2
FF9B
FF89
0053
FF72
0189
FFA5
0019
0007
FF2C
FF9B
00BD
FF5D
0063
FF7D
00C2
FF5D
FF4A
009D
FFEE
0011
007F
FF64
0007
FF93
FF06
009E
FFC2
0050
00A4
FF84
012B
017C
FFA7
000D
018D
00FB
00DB
FFED
00D5
0032
FF0F
007A
FFCA
00C1
012A
FFCA
0112
FF6D
FF7B
003E
00B7
00BB
0100
00CC
FFF4
FFCB
FE6F
0061
0041
013D
FFF8
00A3
FE90
FF9A
FE4A
0013
0118
015B
FF99
FF99
00A9
0019
0007
000D
FFA2
0198
FFE9
00CF
FFDC
00CF
FFE4
FF10
01AB
000C
0010
007E
00A6
FFD0
FFF9
FFC9
0089
004B
0047
0081
0044
0003
FEAC
FF96
00BD
0154
FE8B
0093
FDBC
FF22
FF17
0066
0047
0005
FEBD
FFD7
FF83
00B6
FF34
FF0B
0084
00ED
0035
FEC2
003E
FF8C
FF3A
0041
006E
0169
FFDA
000A
FFCB
FF1F
000A
FF93
FFDB
002C
FF3A
FF5A
FF3F
FFB7
FDDE
016A
0081
015A
FEA5
0031
FF11
FF0D
FD69
0142
0149
0041
FEA8
FF3C
0118
006C
FFE2
01CD
00FC
006E
FECA
FFD6
01D5
FFA3
FDC8
027B
0061
009A
FE8B
00A9
00FA
FF0B
FF85
0133
015B
0156
FD71
0186
0123
000B
FD5B
0187
FFCB
FFEA
0081
0121
0211
0057
FFD6
0037
00CC
FECA
0047
0037
00AC
FF0D
0029
FF54
FFB0
FF69
00A1
FEA9
0085
FEFA
0057
001C
FFA5
FFFE
0086
FFF6
0042
00C3
0037
FFCA
FEA4
00FB
006E
FF3D
00ED
FE96
00D2
001D
0060
0024
FFC2
0027
FFD8
FF20
FF80
0098
007D
FF3D
FFA5
FFC2
FFAB
FE21
0038
00D0
004E
FEDF
0011
FFF4
FFF2
FF8A
0011
003B
004D
FFD7
0002
0089
0098
FE91
FF43
0069
012B
FEEC
0054
00F0
00A8
FFC9
FF73
FF15
0006
FFB1
FF44
FFCF
00E2
FF62
002B
FF86
008A
FE9B
FF3D
003C
007A
FF3C
FFBB
FFF8
012D
FFDB
FF2A
FFF3
013C
FE6D
0039
FFDC
0077
0031
FF8E
FF14
001C
FEC4
0089
0093
FFC2
FED7
FF99
FFAF
0024
FE8E
005A
FEDD
00EC
FF95
FFCA
005B
0088
FF26
FEFC
FFA4
0072
FF5C
FE91
FF1E
FF51
FF43
FFA8
0016
00B1
FED1
FE94
FF7E
001B
FE31
0076
0039
001E
FF7E
FF33
008D
FF72
FEC9
FF4F
FFB9
0030
FF2E
FF25
FF3C
FFDC
FF3F
FF81
FEAB
0142
FFF3
FF2B
0173
000B
FFC5
FF16
FF87
0047
FF45
FE60
00E4
0032
FFEC
00CE
FF5D
00CD
FF9D
FEC4
008C
FEC9
FF62
0098
FF7C
0057
0018
FEE9
FFD4
FFB0
FFA4
00E5
FEEF
0047
0006
FF98
0016
005F
FF2C
FFFF
FF09
023B
FEFB
0103
000B
FFFC
FFE2
0074
0185
00B6
0039
00B8
FEDB
FF5C
FF4F
0006
0113
0098
FFE5
0183
0027
FFE2
FF62
FF9F
024B
01C2
0026
0240
FF18
FFF8
FFA8
FF67
014A
FFC6
FFE7
0081
FE3E
FEF9
008F
020B
0088
FFAB
FF14
010D
00E0
FEE5
FF56
FEBF
FFF9
FF99
0071
0067
0132
FF72
0120
FFA9
FFA2
00AF
01D9
0174
00B3
FF77
FF5C
FF85
FF84
FFC4
0114
0106
FE66
FD95
001E
FF04
FE7B
FFAB
0092
FFA1
FEF8
FF15
FF98
FF32
FF78
0005
FDB4
FF78
00E1
FFB1
FFF5
FECC
0056
0006
FEEC
FF36
FF66
FFAA
FDD2
FFDA
0082
FFB6
FEAD
0032
008B
0062
FF14
0045
005D
FF98
FF10
008A
FFBD
00E2
FF77
0069
00C5
005D
FFC7
FFD9
0067
FF23
FF23
FEC6
0084
FF90
0099
FDDB
FFC6
0079
0133
FF69
FF24
0080
FF0E
FE98
0019
0108
FEBF
FFCF
FF4C
0043
FFCF
FFC1
FF04
0212
FE56
FE9F
FF23
FF9C
00D3
FFC1
FF04
00D1
FE97
FF89
FF5C
00BE
FFB5
FF1F
0154
FFA8
FF68
FF21
006F
0033
FE89
FE5B
FF99
00CC
FFA2
FFAE
026B
FFC6
FEE4
FCFD
FFD1
000A
FFB0
005A
00F5
FF85
FE01
FE05
0089
012B
FE43
008A
0259
007D
FE9D
FE11
FF9F
019E
FFD9
FFB2
010B
FE7E
FE54
FE55
008C
00C5
FE09
FF47
0180
FF7F
013B
FF73
FDB0
0243
0072
00D0
0027
FFCC
FF6A
0000
FFCB
007E
FECE
001C
FF4D
FFF0
0013
00CA
FFD9
0002
FE22
00AC
FEC4
FFE5
FEEE
0065
0112
FE90
FFAC
006E
FF1B
0123
FEB6
FFBC
011C
FFFD
FEC5
0111
FFAC
0058
FEC1
00C7
0065
0020
FEBE
00CD
000D
FFD5
FF4C
0027
008D
FF30
FE30
0129
FFBB
0137
FD73
0099
00E4
0052
FEC7
0195
FFE9
000B
FFA3
000A
0112
FFEA
FE20
0144
0039
FFFA
FF6A
00B9
0168
FF81
FEEA
0025
FF69
FFAB
0051
0065
FFA4
0132
FDE1
FF14
FFDD
0032
FE01
FFEA
0062
00E1
FE7F
00FD
FF4D
FF99
004B
FF09
004B
FFA3
FE29
019A
FF71
FFDD
FF37
0041
00B0
003B
FE4F
0191
FE76
0133
FE32
004F
FFF3
00BE
FE1E
FF62
FF53
01A6
FFE3
FFAE
0090
00C3
FE9A
FE79
00F7
FFF8
FE82
FF77
0050
0002
FEA1
FF98
006F
0028
FF2E
FF0D
FFDC
0036
FE86
003D
FEFF
00FB
FEC3
FF45
006B
FFD9
FDA2
0018
005D
FF39
FEE9
FEA7
FF96
0054
FEFD
FE6C
FF7E
0088
000C
FEBB
004A
FFA7
FF11
FEF1
FF2C
0083
FF4A
FE71
0092
0066
FFD6
008C
FF99
00BC
FE4E
FE73
0017
0059
FF04
00C1
FF2E
FFCC
FFE6
FEF6
000D
FFF8
FF11
009F
0015
018E
FFE0
FE59
0021
0073
FF54
FFFF
FEFB
007A
00C8
FF26
FE07
FED9
FE9A
0028
FF30
0056
FF51
FEC1
FE0E
FFB1
0059
FEE0
00A2
0082
FF78
FD32
FEFD
FEC8
FFDC
FE62
FFE2
00A6
FFA4
FE38
FF98
FF59
FEA8
FFB7
008E
0301
FF19
FF6A
0006
FFAD
0044
FFEC
FFF5
0192
0039
FF57
00BE
00D8
FF0C
0025
00EE
01B7
00A5
FF60
0006
00B3
0055
FE9A
01F8
0080
FF92
FDBB
0017
FFC5
004F
FE6F
0231
FFC9
00B8
FE7E
0091
0134
0093
0046
008D
00E6
028C
FEE3
FF89
0000
FEE5
0044
0159
01AE
00D0
FF91
002B
010A
FF73
FF25
0018
01A0
0107
FF98
FEBB
FFEA
FF0D
FF0A
0178
01B8
FFF9
0005
FE46
FEB2
006C
FED1
0117
008A
002E
FF1E
FF5A
FF24
FF02
FEF2
FF7C
01DC
010F
FFCB
FFA4
019F
FEC6
00A3
0172
0109
FFF1
001A
FFE4
0052
FE8F
FF9C
FFAE
00C4
FFEF
0032
FE79
FFD0
FF40
FF0B
000B
00A4
007A
00AB
FE0E
00F0
FF90
FF85
0070
00C5
FFE2
FFC6
006B
FFE7
002D
FF0F
FF9B
00A2
002C
FF92
FE24
00CC
FFAE
0085
0014
02E7
FFF1
FF9D
0220
FF6E
FF32
0063
00DC
00BB
FF01
FF5B
FFCC
FEDE
FFDE
0071
FFB8
01B4
FF56
FF50
FF3B
FE06
FEE3
FF4D
FF21
0103
0045
FFC4
FED4
FE87
FEFE
FFC8
0006
0171
FF96
FFC5
FF1A
FDC3
FD8B
0013
00FF
00BA
FF20
FFEE
00DA
FEAC
00F2
0118
FFAA
013E
FEBC
0127
02A8
FF72
00FF
00BE
FEA1
007B
FF46
00C3
00FD
FFA7
FF7C
01C2
FED7
0002
0176
FFC0
FE84
FFF1
00DD
00A6
FE60
FE80
FFA1
FE37
000B
FF7D
01B0
FFAB
FF5D
FD7E
0245
0034
FC54
01D0
FF9D
00A8
006D
FF6D
FF6B
0103
01F5
00E6
FD26
FEF8
FFB1
0166
FFA4
0182
008B
0015
FE0F
0075
FE57
FFE4
0062
0051
FE46
FFA6
FF0C
007D
FF71
002B
FBC6
0048
0230
0066
0062
01FF
FFE2
FEE5
FE46
FFD8
FD15
0144
FF6D
0012
FED3
FF3C
FF8E
FFB2
0095
FF71
0003
FF44
FF7E
0032
00E4
0143
0099
0147
0023
FF80
0051
00A8
FE9C
0145
FF12
0060
0071
00E0
0098
FE2C
FEA4
009B
0243
008E
FF4A
FF67
FF52
FF9A
FF48
FF07
FDD7
0090
0074
FFEE
0052
FF98
FE8F
FFCB
00FC
0146
FF1D
00DA
0137
FFA0
FFFD
FFB1
FEC1
FF17
0034
FF2C
FFFF
FF1E
FEA3
FF24
FF2C
00B1
FF3F
00C7
01BD
013D
FF3B
FFFF
02E0
0209
FF1B
FF18
009D
FE5D
01C0
FF22
FEBD
01E8
FF20
FE97
00B6
0046
00F0
FF98
001A
0027
FFD2
0061
0249
FF90
FFDE
FEF0
FFEA
01E6
0104
FF95
0114
FFBA
00AE
FFE7
FFCD
0150
FF7E
FF78
0100
FF3E
FFFB
0039
01E2
0059
FE6B
FE66
0185
FF46
FD5D
006C
0011
FC94
FE82
FEDE
FFBA
FFA8
FFFE
FF2F
FF6C
FF2C
0009
00A9
0157
00B4
FFA3
FF7A
002F
FEFF
FEF9
FEB9
0221
FF47
FF25
FFD6
00C8
0195
FFC3
FF64
012F
FE8E
019D
FEEB
0082
FCFF
FF98
FF77
001E
000E
FE27
FF47
0043
FF0D
FFEF
FF5F
014E
FF6B
FFCC
FFA0
0094
00BB
0044
0012
014C
FE30
002A
FEDA
FFFF
0053
01B3
0058
0021
FFCA
FFD3
FE71
004A
0058
FF82
013D
0057
FF2B
00C5
FF0D
FF34
FF1E
0024
FF18
0015
FF82
0058
FF90
0262
003B
016C
0149
009C
FF1A
FFE5
FFAC
FFD7
0003
0094
FFEC
FE4B
FF44
FEEA
FE80
FF77
FFB1
007E
00AD
0048
FE7B
FFDF
FE78
0172
0054
012D
0142
00E5
FF2C
0172
FE5A
FEF4
FEC4
0029
002A
FFCE
FF96
005D
0013
0153
FFA2
0124
FFAC
FF8C
FF66
0090
FE98
FFA7
00B6
0077
FFAA
01AB
FE42
006E
FE91
006A
FF19
018B
FFE1
00CD
FEEA
0134
FEC0
019F
0093
011C
FFCB
018D
FF27
00E3
FF92
FF49
0141
011F
0000
FF92
FE77
0057
FF39
004F
019F
023B
FE87
FB9C
008F
0241
FDB1
FF34
0054
0174
FF42
FD52
0020
01D4
FE3C
FF71
FE96
0264
FF46
FC92
FFDA
00E0
FF4D
FF80
0022
0298
FF8B
FDF3
FE6C
01C3
FF12
FCDA
01C2
0136
0174
FC1C
FE51
FFA1
FEA5
00BF
0024
014B
00DB
FED2
FEC6
010C
FEF9
013C
0169
0049
FFDC
0060
FECD
FF10
FEAA
01F0
0034
0111
0028
FFDC
FF2A
FFCD
FEB2
00C7
0220
004C
0086
FFF4
FF8A
FF3A
FFB5
01A2
FFA1
FFAC
FF34
FFED
FFF3
FED9
0020
0117
FFB6
00DA
00C0
FFF7
FECA
FF60
FFBA
FF32
FFB5
0053
000A
003F
FD1A
0021
0013
004E
0072
FFC7
00B2
0136
FFAC
FFC3
FEBB
0113
00CB
00E2
00D9
FFCE
FCFC
FED4
FFE8
FF28
FFE9
0093
00D1
001A
FE83
FF6F
FFF8
FF0E
FF35
0143
0233
0018
FFEE
FF6D
0272
0108
009E
FFF6
0000
006C
00E5
FEFE
FF53
0067
006A
0014
FEDE
002A
FEB1
0072
0030
002B
00B5
FF35
FF86
0038
FF21
FF8E
005F
FF71
00FA
00AE
00C6
FF9D
FF36
FF4D
012E
FDF7
FFA8
0002
0362
FE18
FE7F
FF14
018F
FF8B
FC38
003A
015C
00F5
FE84
000A
00EC
016B
FD9F
FFFD
0233
FF8F
001A
FEE3
012B
0011
FE0B
00C4
00DC
00B0
FEFC
FEE1
0101
FF85
FDE1
0116
020A
FED1
FEB3
FE55
044D
FD54
FFFF
0003
03C2
FDCB
FDE1
FF93
0304
0018
FF6D
FFDD
FF70
FD9F
002C
FFE5
03BA
0080
FE4C
FF6C
0126
FEC0
0011
FF0A
0397
FEF7
FF43
FEE3
015B
FE65
FE10
FD2B
030C
FE83
FE98
0131
0139
FDEA